unsigned char tinyml_parking_model_tflite[] = {
  0x1c, 0x00, 0x00, 0x00, 0x54, 0x46, 0x4c, 0x33, 0x14, 0x00, 0x20, 0x00,
  0x1c, 0x00, 0x18, 0x00, 0x14, 0x00, 0x10, 0x00, 0x0c, 0x00, 0x00, 0x00,
  0x08, 0x00, 0x04, 0x00, 0x14, 0x00, 0x00, 0x00, 0x1c, 0x00, 0x00, 0x00,
  0x98, 0x00, 0x00, 0x00, 0xf0, 0x00, 0x00, 0x00, 0x1c, 0x09, 0x00, 0x00,
  0x2c, 0x09, 0x00, 0x00, 0x84, 0x0f, 0x00, 0x00, 0x03, 0x00, 0x00, 0x00,
  0x01, 0x00, 0x00, 0x00, 0x10, 0x00, 0x00, 0x00, 0x00, 0x00, 0x0a, 0x00,
  0x10, 0x00, 0x0c, 0x00, 0x08, 0x00, 0x04, 0x00, 0x0a, 0x00, 0x00, 0x00,
  0x0c, 0x00, 0x00, 0x00, 0x1c, 0x00, 0x00, 0x00, 0x3c, 0x00, 0x00, 0x00,
  0x0f, 0x00, 0x00, 0x00, 0x73, 0x65, 0x72, 0x76, 0x69, 0x6e, 0x67, 0x5f,
  0x64, 0x65, 0x66, 0x61, 0x75, 0x6c, 0x74, 0x00, 0x01, 0x00, 0x00, 0x00,
  0x04, 0x00, 0x00, 0x00, 0x90, 0xff, 0xff, 0xff, 0x0c, 0x00, 0x00, 0x00,
  0x04, 0x00, 0x00, 0x00, 0x08, 0x00, 0x00, 0x00, 0x6f, 0x75, 0x74, 0x70,
  0x75, 0x74, 0x5f, 0x30, 0x00, 0x00, 0x00, 0x00, 0x01, 0x00, 0x00, 0x00,
  0x04, 0x00, 0x00, 0x00, 0x92, 0xf7, 0xff, 0xff, 0x04, 0x00, 0x00, 0x00,
  0x0f, 0x00, 0x00, 0x00, 0x6b, 0x65, 0x72, 0x61, 0x73, 0x5f, 0x74, 0x65,
  0x6e, 0x73, 0x6f, 0x72, 0x5f, 0x37, 0x30, 0x00, 0x02, 0x00, 0x00, 0x00,
  0x34, 0x00, 0x00, 0x00, 0x04, 0x00, 0x00, 0x00, 0xdc, 0xff, 0xff, 0xff,
  0x0f, 0x00, 0x00, 0x00, 0x04, 0x00, 0x00, 0x00, 0x13, 0x00, 0x00, 0x00,
  0x43, 0x4f, 0x4e, 0x56, 0x45, 0x52, 0x53, 0x49, 0x4f, 0x4e, 0x5f, 0x4d,
  0x45, 0x54, 0x41, 0x44, 0x41, 0x54, 0x41, 0x00, 0x08, 0x00, 0x0c, 0x00,
  0x08, 0x00, 0x04, 0x00, 0x08, 0x00, 0x00, 0x00, 0x0e, 0x00, 0x00, 0x00,
  0x04, 0x00, 0x00, 0x00, 0x13, 0x00, 0x00, 0x00, 0x6d, 0x69, 0x6e, 0x5f,
  0x72, 0x75, 0x6e, 0x74, 0x69, 0x6d, 0x65, 0x5f, 0x76, 0x65, 0x72, 0x73,
  0x69, 0x6f, 0x6e, 0x00, 0x10, 0x00, 0x00, 0x00, 0x28, 0x08, 0x00, 0x00,
  0x20, 0x08, 0x00, 0x00, 0xf0, 0x07, 0x00, 0x00, 0xd8, 0x06, 0x00, 0x00,
  0xc8, 0x02, 0x00, 0x00, 0xb4, 0x02, 0x00, 0x00, 0x84, 0x02, 0x00, 0x00,
  0x54, 0x02, 0x00, 0x00, 0xc4, 0x01, 0x00, 0x00, 0xb4, 0x00, 0x00, 0x00,
  0xac, 0x00, 0x00, 0x00, 0xa4, 0x00, 0x00, 0x00, 0x9c, 0x00, 0x00, 0x00,
  0x94, 0x00, 0x00, 0x00, 0x74, 0x00, 0x00, 0x00, 0x04, 0x00, 0x00, 0x00,
  0x4e, 0xf8, 0xff, 0xff, 0x04, 0x00, 0x00, 0x00, 0x60, 0x00, 0x00, 0x00,
  0x10, 0x00, 0x00, 0x00, 0x00, 0x00, 0x00, 0x00, 0x08, 0x00, 0x0e, 0x00,
  0x08, 0x00, 0x04, 0x00, 0x08, 0x00, 0x00, 0x00, 0x10, 0x00, 0x00, 0x00,
  0x24, 0x00, 0x00, 0x00, 0x00, 0x00, 0x06, 0x00, 0x08, 0x00, 0x04, 0x00,
  0x06, 0x00, 0x00, 0x00, 0x04, 0x00, 0x00, 0x00, 0x00, 0x00, 0x00, 0x00,
  0x0c, 0x00, 0x18, 0x00, 0x14, 0x00, 0x10, 0x00, 0x0c, 0x00, 0x04, 0x00,
  0x0c, 0x00, 0x00, 0x00, 0x5a, 0x81, 0x9f, 0x7b, 0xa3, 0x3a, 0x32, 0x65,
  0x02, 0x00, 0x00, 0x00, 0x02, 0x00, 0x00, 0x00, 0x04, 0x00, 0x00, 0x00,
  0x06, 0x00, 0x00, 0x00, 0x32, 0x2e, 0x31, 0x39, 0x2e, 0x30, 0x00, 0x00,
  0xba, 0xf8, 0xff, 0xff, 0x04, 0x00, 0x00, 0x00, 0x10, 0x00, 0x00, 0x00,
  0x31, 0x2e, 0x35, 0x2e, 0x30, 0x00, 0x00, 0x00, 0x00, 0x00, 0x00, 0x00,
  0x00, 0x00, 0x00, 0x00, 0x68, 0xf2, 0xff, 0xff, 0x6c, 0xf2, 0xff, 0xff,
  0x70, 0xf2, 0xff, 0xff, 0x74, 0xf2, 0xff, 0xff, 0xe6, 0xf8, 0xff, 0xff,
  0x04, 0x00, 0x00, 0x00, 0x00, 0x01, 0x00, 0x00, 0x6b, 0x7d, 0x0d, 0x40,
  0x88, 0x49, 0x97, 0xbd, 0x5d, 0x18, 0x9d, 0xbc, 0x81, 0xb7, 0xa5, 0xbd,
  0xe0, 0xf9, 0xe6, 0x3f, 0x0d, 0x7a, 0x8b, 0x3e, 0x28, 0x0c, 0xef, 0xbd,
  0xe4, 0x64, 0xa1, 0xbd, 0x99, 0x02, 0xab, 0x3f, 0xb4, 0xff, 0x84, 0x3b,
  0xe6, 0x13, 0xb9, 0xbe, 0x1f, 0x7d, 0xc2, 0xbe, 0x50, 0x71, 0x0b, 0x40,
  0xba, 0x7b, 0x08, 0xbe, 0xc1, 0xa1, 0xa3, 0x3e, 0x43, 0x90, 0x52, 0xbb,
  0x9d, 0xcc, 0xee, 0x3d, 0x41, 0x13, 0x95, 0xbe, 0x02, 0xbc, 0xfd, 0x3f,
  0x67, 0x71, 0x8b, 0x3e, 0x18, 0x33, 0x95, 0x3e, 0x66, 0x4c, 0x3a, 0xbf,
  0xa6, 0xa0, 0x14, 0xbe, 0x64, 0xa7, 0xcd, 0xbd, 0x9e, 0xdb, 0x0a, 0xbf,
  0xb7, 0xa8, 0x85, 0xbd, 0x1e, 0x83, 0x15, 0xbe, 0x70, 0x08, 0xdc, 0xbc,
  0x2f, 0xcb, 0xbe, 0xbe, 0x02, 0x1c, 0x0c, 0xbe, 0xd3, 0xd9, 0x1e, 0x3d,
  0x96, 0xd4, 0xa1, 0xbe, 0x15, 0x06, 0xdc, 0x3f, 0xc9, 0xb7, 0x09, 0x3e,
  0x25, 0x68, 0x11, 0x3d, 0x83, 0x8d, 0xc0, 0xbe, 0x3c, 0x70, 0x93, 0xbe,
  0x80, 0x1c, 0x27, 0xbc, 0x80, 0x3f, 0x3d, 0xbc, 0x24, 0x24, 0x2b, 0xbe,
  0x77, 0x42, 0x2e, 0x3e, 0xdd, 0xd3, 0xdb, 0xbe, 0xa5, 0x5f, 0x89, 0x3e,
  0x59, 0x1b, 0x00, 0x3f, 0xdc, 0xda, 0xa9, 0x3f, 0x0f, 0xca, 0x36, 0x3e,
  0x9a, 0x0d, 0x6d, 0xbe, 0x61, 0x89, 0x40, 0xbe, 0xbc, 0xa4, 0xa2, 0x3d,
  0x04, 0xfd, 0xa4, 0xbe, 0x38, 0xde, 0xd8, 0x3f, 0xfd, 0xaa, 0xba, 0x3d,
  0x10, 0xeb, 0xf5, 0x3f, 0x30, 0x0c, 0xd0, 0x3d, 0xa2, 0x47, 0xee, 0x3f,
  0x1c, 0x10, 0x2b, 0x3e, 0xe9, 0x09, 0xe7, 0x3f, 0x74, 0x61, 0x0c, 0x3e,
  0xe0, 0xbc, 0x58, 0x40, 0xb4, 0xb8, 0x07, 0xbf, 0x7e, 0x3f, 0x3c, 0x40,
  0x5b, 0x56, 0xa3, 0xbe, 0x73, 0x33, 0x0c, 0x3e, 0x14, 0x1c, 0x5b, 0xbe,
  0xf2, 0xf9, 0xff, 0xff, 0x04, 0x00, 0x00, 0x00, 0x80, 0x00, 0x00, 0x00,
  0xe5, 0xd1, 0x84, 0x3e, 0x38, 0xab, 0xe6, 0xbd, 0x62, 0x1d, 0x94, 0xbd,
  0x00, 0x00, 0x00, 0x00, 0x83, 0xed, 0x0f, 0x3e, 0x00, 0x00, 0x00, 0x00,
  0x59, 0xdf, 0x8a, 0xbd, 0x1c, 0xfa, 0xb4, 0xbe, 0x19, 0x26, 0x24, 0x40,
  0x82, 0xdd, 0x9d, 0xbf, 0xcb, 0x53, 0x7d, 0x40, 0x06, 0x6a, 0x81, 0xbe,
  0xa4, 0x98, 0x5c, 0xbe, 0x00, 0x00, 0x00, 0x00, 0x00, 0x00, 0x00, 0x00,
  0x37, 0x45, 0x4b, 0xbe, 0x96, 0x36, 0x50, 0x3e, 0x87, 0x5f, 0x3a, 0xbe,
  0x00, 0x00, 0x00, 0x00, 0x00, 0x00, 0x00, 0x00, 0xc3, 0x0a, 0x7f, 0xbe,
  0xf4, 0xb1, 0xa4, 0xc0, 0xa2, 0xfb, 0xdf, 0xbe, 0x00, 0x00, 0x00, 0x00,
  0xfb, 0xdc, 0x54, 0xbe, 0xcd, 0x6b, 0x76, 0x3e, 0x44, 0x9d, 0x6f, 0x3e,
  0xf4, 0xb1, 0x9d, 0x3e, 0x1c, 0x9e, 0x89, 0x3e, 0xe5, 0x2a, 0xb5, 0x3f,
  0xef, 0xe3, 0x2c, 0x40, 0x17, 0x22, 0x25, 0xbe, 0x7e, 0xfa, 0xff, 0xff,
  0x04, 0x00, 0x00, 0x00, 0x20, 0x00, 0x00, 0x00, 0x00, 0x00, 0x00, 0x00,
  0xcc, 0xd1, 0xbe, 0xbe, 0xfa, 0x26, 0xc1, 0x3e, 0xd1, 0xfb, 0x75, 0xbd,
  0xe5, 0xf5, 0x85, 0x3e, 0x11, 0x4f, 0x08, 0xbe, 0xb0, 0x0d, 0xbb, 0xbd,
  0xe3, 0xce, 0xa4, 0x3d, 0xaa, 0xfa, 0xff, 0xff, 0x04, 0x00, 0x00, 0x00,
  0x20, 0x00, 0x00, 0x00, 0xb0, 0x85, 0xa8, 0xbf, 0x3a, 0x11, 0xf6, 0xbd,
  0x65, 0x38, 0x04, 0x3f, 0x11, 0xf3, 0x92, 0xbf, 0xcd, 0xe8, 0xac, 0xbe,
  0xf9, 0x5b, 0x09, 0x3f, 0x73, 0x7c, 0xa1, 0xbe, 0x92, 0xe8, 0x06, 0x3f,
  0xd6, 0xfa, 0xff, 0xff, 0x04, 0x00, 0x00, 0x00, 0x04, 0x00, 0x00, 0x00,
  0xba, 0xc3, 0x28, 0x3f, 0xe6, 0xfa, 0xff, 0xff, 0x04, 0x00, 0x00, 0x00,
  0x00, 0x04, 0x00, 0x00, 0x50, 0x06, 0xd9, 0x3c, 0xaa, 0xab, 0xba, 0xbe,
  0x80, 0x18, 0xc5, 0x3b, 0xb8, 0x68, 0x98, 0xbd, 0xf8, 0x4f, 0x58, 0x3e,
  0x4f, 0xcd, 0x8b, 0xbe, 0x90, 0x82, 0x11, 0x3d, 0x11, 0xc8, 0xb0, 0xbe,
  0x96, 0x07, 0x9b, 0xbe, 0x93, 0x62, 0x1d, 0xbe, 0x78, 0xa0, 0x40, 0xbd,
  0x8c, 0x1a, 0x1a, 0xbe, 0x58, 0xd7, 0xab, 0xbe, 0x78, 0x4e, 0x54, 0x3e,
  0x82, 0xd2, 0x81, 0xbe, 0xa4, 0x83, 0xbb, 0xbd, 0x50, 0x40, 0x96, 0xbc,
  0xb8, 0x3a, 0x03, 0xbe, 0xc8, 0x32, 0x31, 0x3e, 0x16, 0xb6, 0xc2, 0x3e,
  0x91, 0x43, 0xb1, 0xbe, 0xf3, 0xe7, 0x91, 0xbe, 0xe4, 0x09, 0xba, 0x3d,
  0xc8, 0x15, 0x8f, 0x3e, 0x28, 0x84, 0x58, 0x3e, 0x02, 0x5f, 0x3e, 0xbe,
  0x11, 0x05, 0x40, 0xbe, 0x27, 0xdf, 0x3d, 0xbe, 0xee, 0x5c, 0x16, 0xbe,
  0xb8, 0x63, 0x9f, 0x3e, 0x2b, 0xba, 0x9e, 0xbe, 0xf9, 0x5b, 0xb3, 0xbe,
  0x7a, 0x17, 0x51, 0xbf, 0xc9, 0x0e, 0x9e, 0x3e, 0xde, 0x33, 0x9c, 0xbe,
  0x1c, 0x07, 0x70, 0xbe, 0x04, 0x2a, 0x92, 0xbe, 0xd1, 0x31, 0xa4, 0xbe,
  0x45, 0x71, 0x42, 0xbe, 0x29, 0x4a, 0xa5, 0xbe, 0xeb, 0xc0, 0x74, 0xbd,
  0xcb, 0xf9, 0x5b, 0xbf, 0x4b, 0xbb, 0x20, 0xbf, 0x42, 0x42, 0xb4, 0x3e,
  0xc5, 0xae, 0x25, 0x3e, 0xbe, 0x45, 0x83, 0x3e, 0x7c, 0xcc, 0x51, 0x3e,
  0xc8, 0x0d, 0x85, 0xbd, 0x4c, 0xcf, 0xee, 0xbe, 0xa0, 0x9a, 0xd4, 0x3c,
  0xca, 0xdd, 0x5e, 0xbe, 0xdd, 0x96, 0x57, 0xbe, 0x00, 0xdf, 0xd1, 0x3d,
  0x38, 0x6c, 0xea, 0xbd, 0x24, 0xe2, 0xdf, 0xbc, 0x16, 0xb0, 0x90, 0x3e,
  0x29, 0x58, 0x1c, 0xbe, 0x94, 0x07, 0x09, 0xbf, 0x62, 0xec, 0x24, 0xbf,
  0x18, 0x41, 0x1c, 0xbf, 0x22, 0x0b, 0xbb, 0xbd, 0x37, 0x81, 0x64, 0xbf,
  0xe3, 0xa4, 0xb1, 0xbc, 0x10, 0x7a, 0x0e, 0x3e, 0x08, 0x6b, 0xdb, 0x3e,
  0xdf, 0xaf, 0xc8, 0x3c, 0xd0, 0x4a, 0x20, 0x3f, 0x3b, 0x57, 0xb0, 0xbe,
  0xbc, 0x5d, 0x89, 0x3e, 0x20, 0x62, 0x93, 0xbd, 0x4b, 0xfd, 0x11, 0x3f,
  0xdb, 0xa0, 0xd0, 0x3d, 0x6d, 0xbc, 0x8d, 0x3e, 0xaa, 0x76, 0x27, 0x3f,
  0x1a, 0x47, 0xa3, 0x3f, 0x89, 0x06, 0xfe, 0xbc, 0x38, 0xd9, 0xba, 0x3d,
  0x28, 0xc4, 0x0b, 0x3d, 0x1e, 0xbe, 0x8e, 0xbe, 0x67, 0x66, 0x2d, 0x3b,
  0xd5, 0x4e, 0x44, 0x3f, 0x91, 0xcb, 0xfd, 0xbd, 0xd4, 0xf1, 0xaf, 0xbe,
  0xac, 0x16, 0x88, 0xbe, 0x2a, 0x06, 0xbc, 0xbd, 0x29, 0xa3, 0x8d, 0xbf,
  0xec, 0x0f, 0xc4, 0x3e, 0xd4, 0xd2, 0x09, 0xbe, 0x60, 0x01, 0x82, 0xbc,
  0x16, 0xf9, 0xab, 0x3e, 0xb3, 0x4f, 0x19, 0x3f, 0xda, 0x86, 0x21, 0x3f,
  0x4b, 0x22, 0x07, 0x3f, 0x6c, 0xad, 0x89, 0x3d, 0xf3, 0xdf, 0x33, 0xc0,
  0xfd, 0x8b, 0x22, 0xbd, 0x03, 0xd1, 0x43, 0xbd, 0x2f, 0x82, 0xa2, 0xbe,
  0xdf, 0xe1, 0xcb, 0xbd, 0x3c, 0x3e, 0xb2, 0x3e, 0xdf, 0x3e, 0x23, 0xbe,
  0x97, 0x17, 0x6f, 0xbe, 0xbd, 0x0d, 0xc8, 0xbe, 0x34, 0xb4, 0x92, 0x3c,
  0x57, 0xc6, 0xcd, 0x3d, 0xab, 0x5b, 0x87, 0x3e, 0xa8, 0x2d, 0xa0, 0xbe,
  0x8c, 0xc7, 0x1b, 0xbe, 0xa3, 0x71, 0x84, 0xbe, 0x18, 0xae, 0x8e, 0x3e,
  0xe4, 0x98, 0x3e, 0x3e, 0x9e, 0x2e, 0x09, 0xbe, 0x2b, 0x75, 0x3e, 0x3e,
  0x00, 0x38, 0xed, 0xbd, 0x10, 0xac, 0xdb, 0x3d, 0x26, 0xe3, 0x77, 0xbe,
  0x58, 0xa7, 0x59, 0x3e, 0xbd, 0x4a, 0xd3, 0x3c, 0x83, 0x09, 0xec, 0xbd,
  0xc0, 0xf1, 0x79, 0xbd, 0x5b, 0x9c, 0x02, 0xbe, 0xe0, 0xcf, 0x04, 0x3e,
  0x43, 0x5e, 0xd4, 0xbe, 0xd2, 0x82, 0xe4, 0xbe, 0xf2, 0x18, 0xa5, 0xbe,
  0xb2, 0x3f, 0x6b, 0x3e, 0x25, 0x94, 0x55, 0xbe, 0x6e, 0xab, 0x30, 0xbe,
  0x0b, 0x42, 0xe9, 0x3e, 0xac, 0x4a, 0x50, 0xbd, 0x7a, 0xfb, 0xe8, 0x3e,
  0xc2, 0xdf, 0x87, 0x3e, 0x01, 0x8a, 0xaf, 0x3d, 0x7a, 0x61, 0x87, 0xbe,
  0xae, 0x89, 0xec, 0x3d, 0x89, 0x5f, 0x8a, 0xbe, 0x55, 0x9e, 0x86, 0xbd,
  0xdd, 0xb8, 0x8d, 0x3d, 0x27, 0xc7, 0x6d, 0x3f, 0x21, 0x28, 0x5b, 0x3e,
  0x92, 0xc1, 0xe1, 0xbd, 0x8f, 0x01, 0xc3, 0xbe, 0xed, 0x7b, 0x4d, 0xbe,
  0x53, 0xce, 0x01, 0x3e, 0xae, 0xe3, 0xb8, 0x3e, 0x18, 0xda, 0x6e, 0x3e,
  0xd0, 0x50, 0x00, 0x3e, 0x10, 0x07, 0xfc, 0x3d, 0xc3, 0x9b, 0x3c, 0x3e,
  0xd8, 0x66, 0x0b, 0xc0, 0xdf, 0xa1, 0x9f, 0x3e, 0xb0, 0x2e, 0x2b, 0xbe,
  0x29, 0x80, 0xc9, 0x3c, 0xc6, 0xfd, 0x46, 0x3f, 0x29, 0x90, 0xfb, 0x3e,
  0x1f, 0xff, 0x5d, 0x3f, 0x07, 0x66, 0x29, 0x3f, 0x63, 0x2e, 0x9a, 0x3f,
  0xed, 0x94, 0x24, 0xc0, 0x42, 0xb1, 0x89, 0x3d, 0x13, 0xfe, 0xde, 0x3d,
  0xf3, 0xa5, 0x51, 0x3e, 0x5e, 0x77, 0xc8, 0xbc, 0x04, 0x29, 0xde, 0x3d,
  0x6c, 0x6c, 0x02, 0xbf, 0x08, 0x82, 0x7d, 0x3d, 0x2f, 0x1f, 0x4a, 0xbe,
  0x54, 0x96, 0xa5, 0xbe, 0xcd, 0xdc, 0x1d, 0xbe, 0x58, 0x3a, 0xdd, 0xbe,
  0xf1, 0xf2, 0x54, 0x3c, 0x15, 0xd6, 0x91, 0x3e, 0xc3, 0xfe, 0xb1, 0xbe,
  0x68, 0xf8, 0x6f, 0xbd, 0x20, 0xe6, 0x21, 0x3e, 0x16, 0x1d, 0x85, 0x3e,
  0x9f, 0x3f, 0x04, 0xbe, 0xcb, 0xe4, 0xaf, 0xbe, 0xf4, 0xf5, 0xc5, 0xbe,
  0x28, 0x40, 0xae, 0x3d, 0x47, 0x4d, 0xb2, 0xbe, 0x89, 0xc7, 0xf8, 0xbd,
  0x28, 0x2c, 0x9e, 0x3e, 0x82, 0x34, 0xb4, 0xbe, 0xcc, 0xc0, 0x2b, 0x3e,
  0xa9, 0xa1, 0x92, 0xbe, 0x8b, 0xcf, 0x0f, 0xbf, 0x12, 0xe7, 0xdc, 0xbe,
  0x0a, 0x0f, 0x39, 0xbf, 0xbe, 0xe3, 0x69, 0xbe, 0x6b, 0x5d, 0x4f, 0xbe,
  0xc0, 0xcd, 0xa0, 0x3c, 0xba, 0x6b, 0x13, 0x3d, 0x63, 0x31, 0xc9, 0x3d,
  0xd9, 0x59, 0x7a, 0xbe, 0xa4, 0x13, 0xca, 0xbd, 0x23, 0xbd, 0xac, 0xbd,
  0x50, 0x39, 0x68, 0x3d, 0x4c, 0xb7, 0x56, 0x3e, 0x04, 0xb2, 0x77, 0x3e,
  0x16, 0x68, 0x2a, 0xbe, 0xec, 0x42, 0xeb, 0xbe, 0x81, 0xf0, 0x17, 0xbe,
  0x00, 0x67, 0x69, 0x3e, 0x7e, 0x97, 0x8f, 0xbe, 0x54, 0xc1, 0x95, 0x3e,
  0xc0, 0x8c, 0x53, 0x3c, 0x19, 0x67, 0xb6, 0xbe, 0x05, 0x78, 0xe8, 0x3d,
  0x09, 0x0d, 0xd5, 0xbb, 0x4e, 0x36, 0xb4, 0x3e, 0x64, 0x96, 0x10, 0x3e,
  0x24, 0x8b, 0xd9, 0x3d, 0xdb, 0xc4, 0xc9, 0xbd, 0x00, 0x31, 0x15, 0xbc,
  0x19, 0x43, 0x43, 0xbe, 0x2e, 0xa2, 0x20, 0x3e, 0xdd, 0xbb, 0xdc, 0xbe,
  0x67, 0x42, 0x7f, 0x3e, 0x73, 0x50, 0xad, 0xbe, 0xfb, 0x99, 0x9a, 0xbe,
  0x7e, 0xab, 0xeb, 0x3d, 0x51, 0x17, 0xd9, 0xbe, 0x22, 0x0e, 0x95, 0x3e,
  0xe9, 0x2d, 0xbd, 0x3d, 0xf5, 0xce, 0x52, 0xbe, 0x0d, 0x26, 0x5e, 0x3e,
  0x8c, 0x10, 0x65, 0x3e, 0xde, 0x41, 0xe9, 0x3d, 0xd8, 0x86, 0xf5, 0xbd,
  0x54, 0xf8, 0x96, 0x3d, 0xad, 0x92, 0xaf, 0x3c, 0x00, 0xb5, 0x94, 0xbf,
  0x2a, 0x7d, 0x87, 0x3e, 0x63, 0x36, 0x28, 0x40, 0x11, 0x68, 0x60, 0xbe,
  0xdc, 0xbc, 0x4e, 0x3d, 0xf0, 0xb5, 0x05, 0x3e, 0x00, 0xe0, 0x65, 0x39,
  0x9a, 0x2c, 0xea, 0xbd, 0x83, 0x7f, 0x30, 0x3e, 0x02, 0x94, 0xc2, 0xbd,
  0xb0, 0xaf, 0xf6, 0xbc, 0x90, 0x32, 0xb7, 0x3c, 0x9a, 0xd7, 0x7e, 0x3e,
  0xca, 0x34, 0xca, 0xc0, 0x1f, 0x0b, 0xcc, 0x3d, 0xec, 0xc4, 0x87, 0xbd,
  0x69, 0xa8, 0xb0, 0x3d, 0x59, 0x7d, 0xb5, 0x3e, 0xed, 0xb4, 0xf0, 0x3d,
  0x33, 0x6c, 0xe2, 0x3e, 0x2a, 0xdb, 0x22, 0x3f, 0x2d, 0x0c, 0x10, 0xc0,
  0xc1, 0xb6, 0xa1, 0x3e, 0xfc, 0x7f, 0x70, 0x3e, 0xf2, 0xfe, 0xff, 0xff,
  0x04, 0x00, 0x00, 0x00, 0x00, 0x01, 0x00, 0x00, 0xe8, 0x42, 0x04, 0xbf,
  0x58, 0x81, 0x03, 0x3f, 0x41, 0x1d, 0xca, 0x3d, 0x90, 0x84, 0x9d, 0x3d,
  0x0e, 0x3f, 0x10, 0xbf, 0xaa, 0x6e, 0x58, 0xbe, 0x03, 0x50, 0x19, 0xbf,
  0x01, 0xbf, 0xcf, 0x3e, 0x80, 0x28, 0x9a, 0xbd, 0xbd, 0xe8, 0xf5, 0xbd,
  0xf7, 0x41, 0x5c, 0x3e, 0x3d, 0x41, 0xcb, 0x3e, 0x92, 0xc2, 0x61, 0x3e,
  0x22, 0x57, 0x2a, 0x3f, 0x82, 0x58, 0x0a, 0xbf, 0xbf, 0xb4, 0x19, 0x40,
  0x40, 0xe5, 0xa0, 0xbd, 0x95, 0x80, 0x23, 0x3e, 0x29, 0x56, 0x36, 0x3f,
  0xc7, 0xc7, 0xc9, 0xbe, 0x1d, 0xfc, 0xf5, 0x3e, 0x9a, 0x36, 0x50, 0x3f,
  0x46, 0x33, 0x38, 0x3e, 0x65, 0x06, 0x91, 0x3f, 0x8d, 0x8b, 0xd4, 0xbe,
  0xfd, 0x66, 0xcf, 0xbd, 0x8e, 0x15, 0x4a, 0xbf, 0x18, 0x4e, 0xb2, 0x3e,
  0x7b, 0x32, 0xbb, 0xbf, 0xa8, 0x51, 0x32, 0x3e, 0x26, 0x57, 0xdb, 0x3e,
  0xab, 0xac, 0xe6, 0x3f, 0x83, 0x59, 0x10, 0x3f, 0xef, 0xfe, 0x10, 0x3f,
  0x1b, 0xc4, 0xd7, 0x3c, 0x25, 0x5a, 0x5e, 0x3e, 0x33, 0x12, 0x12, 0xbf,
  0xfa, 0xf3, 0xd9, 0x3c, 0xb0, 0x58, 0x56, 0xbd, 0xfa, 0x96, 0x9e, 0xbe,
  0x20, 0xa3, 0x60, 0x3e, 0x6e, 0xb7, 0x2c, 0xbf, 0x45, 0x42, 0x21, 0x3f,
  0x47, 0x6e, 0xc0, 0xbc, 0xc2, 0x70, 0x85, 0xbd, 0xcd, 0x2a, 0xfe, 0xbd,
  0x98, 0x7c, 0x6c, 0x3e, 0x29, 0x45, 0x07, 0x40, 0xeb, 0xdb, 0xa7, 0xbe,
  0x06, 0x01, 0xd0, 0x3e, 0x27, 0xfe, 0x59, 0xbf, 0x1f, 0xff, 0xf7, 0xbe,
  0xef, 0x78, 0x10, 0xbf, 0xfc, 0xa6, 0x4f, 0xbe, 0xb0, 0xd4, 0xd9, 0x3d,
  0x44, 0x2d, 0x9b, 0xbe, 0x90, 0x92, 0x20, 0xbd, 0x52, 0x3a, 0x1f, 0xbe,
  0x76, 0xba, 0x03, 0x3f, 0xbe, 0x0a, 0xfe, 0xbe, 0x78, 0xd9, 0x00, 0x3f,
  0x9f, 0x70, 0x04, 0xbe, 0xcd, 0xd0, 0x92, 0xbe, 0xc8, 0x05, 0xcb, 0x3f,
  0x00, 0x00, 0x06, 0x00, 0x08, 0x00, 0x04, 0x00, 0x06, 0x00, 0x00, 0x00,
  0x04, 0x00, 0x00, 0x00, 0x20, 0x00, 0x00, 0x00, 0xfb, 0x3b, 0x27, 0xbf,
  0x96, 0xbd, 0x37, 0x3f, 0x3d, 0x8c, 0x2c, 0x3f, 0xac, 0xeb, 0x0e, 0xc0,
  0xb9, 0x9f, 0x2d, 0x3d, 0xcd, 0x46, 0xa7, 0x3f, 0x79, 0x57, 0xe4, 0xbd,
  0x75, 0x51, 0x7d, 0x3f, 0xc4, 0xf9, 0xff, 0xff, 0xc8, 0xf9, 0xff, 0xff,
  0x0f, 0x00, 0x00, 0x00, 0x4d, 0x4c, 0x49, 0x52, 0x20, 0x43, 0x6f, 0x6e,
  0x76, 0x65, 0x72, 0x74, 0x65, 0x64, 0x2e, 0x00, 0x01, 0x00, 0x00, 0x00,
  0x14, 0x00, 0x00, 0x00, 0x00, 0x00, 0x0e, 0x00, 0x18, 0x00, 0x14, 0x00,
  0x10, 0x00, 0x0c, 0x00, 0x08, 0x00, 0x04, 0x00, 0x0e, 0x00, 0x00, 0x00,
  0x14, 0x00, 0x00, 0x00, 0x1c, 0x00, 0x00, 0x00, 0x10, 0x01, 0x00, 0x00,
  0x14, 0x01, 0x00, 0x00, 0x18, 0x01, 0x00, 0x00, 0x04, 0x00, 0x00, 0x00,
  0x6d, 0x61, 0x69, 0x6e, 0x00, 0x00, 0x00, 0x00, 0x04, 0x00, 0x00, 0x00,
  0xb8, 0x00, 0x00, 0x00, 0x70, 0x00, 0x00, 0x00, 0x38, 0x00, 0x00, 0x00,
  0x04, 0x00, 0x00, 0x00, 0x66, 0xff, 0xff, 0xff, 0x10, 0x00, 0x00, 0x00,
  0x00, 0x00, 0x00, 0x08, 0x0c, 0x00, 0x00, 0x00, 0x10, 0x00, 0x00, 0x00,
  0x44, 0xfa, 0xff, 0xff, 0x01, 0x00, 0x00, 0x00, 0x0c, 0x00, 0x00, 0x00,
  0x03, 0x00, 0x00, 0x00, 0x0b, 0x00, 0x00, 0x00, 0x01, 0x00, 0x00, 0x00,
  0x04, 0x00, 0x00, 0x00, 0x96, 0xff, 0xff, 0xff, 0x10, 0x00, 0x00, 0x00,
  0x00, 0x00, 0x00, 0x08, 0x10, 0x00, 0x00, 0x00, 0x14, 0x00, 0x00, 0x00,
  0x86, 0xff, 0xff, 0xff, 0x00, 0x00, 0x00, 0x01, 0x01, 0x00, 0x00, 0x00,
  0x0b, 0x00, 0x00, 0x00, 0x03, 0x00, 0x00, 0x00, 0x0a, 0x00, 0x00, 0x00,
  0x02, 0x00, 0x00, 0x00, 0x05, 0x00, 0x00, 0x00, 0xca, 0xff, 0xff, 0xff,
  0x10, 0x00, 0x00, 0x00, 0x00, 0x00, 0x00, 0x08, 0x10, 0x00, 0x00, 0x00,
  0x14, 0x00, 0x00, 0x00, 0xba, 0xff, 0xff, 0xff, 0x00, 0x00, 0x00, 0x01,
  0x01, 0x00, 0x00, 0x00, 0x0a, 0x00, 0x00, 0x00, 0x03, 0x00, 0x00, 0x00,
  0x09, 0x00, 0x00, 0x00, 0x03, 0x00, 0x00, 0x00, 0x06, 0x00, 0x00, 0x00,
  0x00, 0x00, 0x0e, 0x00, 0x16, 0x00, 0x00, 0x00, 0x10, 0x00, 0x0c, 0x00,
  0x0b, 0x00, 0x04, 0x00, 0x0e, 0x00, 0x00, 0x00, 0x18, 0x00, 0x00, 0x00,
  0x00, 0x00, 0x00, 0x08, 0x18, 0x00, 0x00, 0x00, 0x1c, 0x00, 0x00, 0x00,
  0x00, 0x00, 0x06, 0x00, 0x08, 0x00, 0x07, 0x00, 0x06, 0x00, 0x00, 0x00,
  0x00, 0x00, 0x00, 0x01, 0x01, 0x00, 0x00, 0x00, 0x09, 0x00, 0x00, 0x00,
  0x03, 0x00, 0x00, 0x00, 0x00, 0x00, 0x00, 0x00, 0x08, 0x00, 0x00, 0x00,
  0x07, 0x00, 0x00, 0x00, 0x01, 0x00, 0x00, 0x00, 0x0c, 0x00, 0x00, 0x00,
  0x01, 0x00, 0x00, 0x00, 0x00, 0x00, 0x00, 0x00, 0x0d, 0x00, 0x00, 0x00,
  0xb0, 0x04, 0x00, 0x00, 0x58, 0x04, 0x00, 0x00, 0x00, 0x04, 0x00, 0x00,
  0xc0, 0x03, 0x00, 0x00, 0x84, 0x03, 0x00, 0x00, 0x48, 0x03, 0x00, 0x00,
  0x0c, 0x03, 0x00, 0x00, 0xac, 0x02, 0x00, 0x00, 0x58, 0x02, 0x00, 0x00,
  0xb0, 0x01, 0x00, 0x00, 0x08, 0x01, 0x00, 0x00, 0x60, 0x00, 0x00, 0x00,
  0x04, 0x00, 0x00, 0x00, 0x9a, 0xfb, 0xff, 0xff, 0x00, 0x00, 0x00, 0x01,
  0x14, 0x00, 0x00, 0x00, 0x1c, 0x00, 0x00, 0x00, 0x1c, 0x00, 0x00, 0x00,
  0x0d, 0x00, 0x00, 0x00, 0x34, 0x00, 0x00, 0x00, 0x02, 0x00, 0x00, 0x00,
  0xff, 0xff, 0xff, 0xff, 0x01, 0x00, 0x00, 0x00, 0x84, 0xfb, 0xff, 0xff,
  0x1b, 0x00, 0x00, 0x00, 0x53, 0x74, 0x61, 0x74, 0x65, 0x66, 0x75, 0x6c,
  0x50, 0x61, 0x72, 0x74, 0x69, 0x74, 0x69, 0x6f, 0x6e, 0x65, 0x64, 0x43,
  0x61, 0x6c, 0x6c, 0x5f, 0x31, 0x3a, 0x30, 0x00, 0x02, 0x00, 0x00, 0x00,
  0x01, 0x00, 0x00, 0x00, 0x01, 0x00, 0x00, 0x00, 0xf2, 0xfb, 0xff, 0xff,
  0x00, 0x00, 0x00, 0x01, 0x14, 0x00, 0x00, 0x00, 0x1c, 0x00, 0x00, 0x00,
  0x1c, 0x00, 0x00, 0x00, 0x0c, 0x00, 0x00, 0x00, 0x80, 0x00, 0x00, 0x00,
  0x02, 0x00, 0x00, 0x00, 0xff, 0xff, 0xff, 0xff, 0x08, 0x00, 0x00, 0x00,
  0xdc, 0xfb, 0xff, 0xff, 0x64, 0x00, 0x00, 0x00, 0x73, 0x65, 0x71, 0x75,
  0x65, 0x6e, 0x74, 0x69, 0x61, 0x6c, 0x5f, 0x31, 0x38, 0x5f, 0x31, 0x2f,
  0x64, 0x65, 0x6e, 0x73, 0x65, 0x5f, 0x35, 0x34, 0x5f, 0x31, 0x2f, 0x4d,
  0x61, 0x74, 0x4d, 0x75, 0x6c, 0x3b, 0x73, 0x65, 0x71, 0x75, 0x65, 0x6e,
  0x74, 0x69, 0x61, 0x6c, 0x5f, 0x31, 0x38, 0x5f, 0x31, 0x2f, 0x64, 0x65,
  0x6e, 0x73, 0x65, 0x5f, 0x35, 0x34, 0x5f, 0x31, 0x2f, 0x52, 0x65, 0x6c,
  0x75, 0x3b, 0x73, 0x65, 0x71, 0x75, 0x65, 0x6e, 0x74, 0x69, 0x61, 0x6c,
  0x5f, 0x31, 0x38, 0x5f, 0x31, 0x2f, 0x64, 0x65, 0x6e, 0x73, 0x65, 0x5f,
  0x35, 0x34, 0x5f, 0x31, 0x2f, 0x42, 0x69, 0x61, 0x73, 0x41, 0x64, 0x64,
  0x00, 0x00, 0x00, 0x00, 0x02, 0x00, 0x00, 0x00, 0x01, 0x00, 0x00, 0x00,
  0x08, 0x00, 0x00, 0x00, 0x96, 0xfc, 0xff, 0xff, 0x00, 0x00, 0x00, 0x01,
  0x14, 0x00, 0x00, 0x00, 0x1c, 0x00, 0x00, 0x00, 0x1c, 0x00, 0x00, 0x00,
  0x0b, 0x00, 0x00, 0x00, 0x80, 0x00, 0x00, 0x00, 0x02, 0x00, 0x00, 0x00,
  0xff, 0xff, 0xff, 0xff, 0x08, 0x00, 0x00, 0x00, 0x80, 0xfc, 0xff, 0xff,
  0x64, 0x00, 0x00, 0x00, 0x73, 0x65, 0x71, 0x75, 0x65, 0x6e, 0x74, 0x69,
  0x61, 0x6c, 0x5f, 0x31, 0x38, 0x5f, 0x31, 0x2f, 0x64, 0x65, 0x6e, 0x73,
  0x65, 0x5f, 0x35, 0x33, 0x5f, 0x31, 0x2f, 0x4d, 0x61, 0x74, 0x4d, 0x75,
  0x6c, 0x3b, 0x73, 0x65, 0x71, 0x75, 0x65, 0x6e, 0x74, 0x69, 0x61, 0x6c,
  0x5f, 0x31, 0x38, 0x5f, 0x31, 0x2f, 0x64, 0x65, 0x6e, 0x73, 0x65, 0x5f,
  0x35, 0x33, 0x5f, 0x31, 0x2f, 0x52, 0x65, 0x6c, 0x75, 0x3b, 0x73, 0x65,
  0x71, 0x75, 0x65, 0x6e, 0x74, 0x69, 0x61, 0x6c, 0x5f, 0x31, 0x38, 0x5f,
  0x31, 0x2f, 0x64, 0x65, 0x6e, 0x73, 0x65, 0x5f, 0x35, 0x33, 0x5f, 0x31,
  0x2f, 0x42, 0x69, 0x61, 0x73, 0x41, 0x64, 0x64, 0x00, 0x00, 0x00, 0x00,
  0x02, 0x00, 0x00, 0x00, 0x01, 0x00, 0x00, 0x00, 0x08, 0x00, 0x00, 0x00,
  0x3a, 0xfd, 0xff, 0xff, 0x00, 0x00, 0x00, 0x01, 0x14, 0x00, 0x00, 0x00,
  0x1c, 0x00, 0x00, 0x00, 0x1c, 0x00, 0x00, 0x00, 0x0a, 0x00, 0x00, 0x00,
  0x80, 0x00, 0x00, 0x00, 0x02, 0x00, 0x00, 0x00, 0xff, 0xff, 0xff, 0xff,
  0x20, 0x00, 0x00, 0x00, 0x24, 0xfd, 0xff, 0xff, 0x64, 0x00, 0x00, 0x00,
  0x73, 0x65, 0x71, 0x75, 0x65, 0x6e, 0x74, 0x69, 0x61, 0x6c, 0x5f, 0x31,
  0x38, 0x5f, 0x31, 0x2f, 0x64, 0x65, 0x6e, 0x73, 0x65, 0x5f, 0x35, 0x32,
  0x5f, 0x31, 0x2f, 0x4d, 0x61, 0x74, 0x4d, 0x75, 0x6c, 0x3b, 0x73, 0x65,
  0x71, 0x75, 0x65, 0x6e, 0x74, 0x69, 0x61, 0x6c, 0x5f, 0x31, 0x38, 0x5f,
  0x31, 0x2f, 0x64, 0x65, 0x6e, 0x73, 0x65, 0x5f, 0x35, 0x32, 0x5f, 0x31,
  0x2f, 0x52, 0x65, 0x6c, 0x75, 0x3b, 0x73, 0x65, 0x71, 0x75, 0x65, 0x6e,
  0x74, 0x69, 0x61, 0x6c, 0x5f, 0x31, 0x38, 0x5f, 0x31, 0x2f, 0x64, 0x65,
  0x6e, 0x73, 0x65, 0x5f, 0x35, 0x32, 0x5f, 0x31, 0x2f, 0x42, 0x69, 0x61,
  0x73, 0x41, 0x64, 0x64, 0x00, 0x00, 0x00, 0x00, 0x02, 0x00, 0x00, 0x00,
  0x01, 0x00, 0x00, 0x00, 0x20, 0x00, 0x00, 0x00, 0x32, 0xfe, 0xff, 0xff,
  0x00, 0x00, 0x00, 0x01, 0x10, 0x00, 0x00, 0x00, 0x10, 0x00, 0x00, 0x00,
  0x09, 0x00, 0x00, 0x00, 0x30, 0x00, 0x00, 0x00, 0xb8, 0xfd, 0xff, 0xff,
  0x21, 0x00, 0x00, 0x00, 0x73, 0x65, 0x71, 0x75, 0x65, 0x6e, 0x74, 0x69,
  0x61, 0x6c, 0x5f, 0x31, 0x38, 0x5f, 0x31, 0x2f, 0x64, 0x65, 0x6e, 0x73,
  0x65, 0x5f, 0x35, 0x32, 0x5f, 0x31, 0x2f, 0x4d, 0x61, 0x74, 0x4d, 0x75,
  0x6c, 0x00, 0x00, 0x00, 0x02, 0x00, 0x00, 0x00, 0x20, 0x00, 0x00, 0x00,
  0x02, 0x00, 0x00, 0x00, 0x82, 0xfe, 0xff, 0xff, 0x00, 0x00, 0x00, 0x01,
  0x10, 0x00, 0x00, 0x00, 0x10, 0x00, 0x00, 0x00, 0x08, 0x00, 0x00, 0x00,
  0x40, 0x00, 0x00, 0x00, 0x08, 0xfe, 0xff, 0xff, 0x31, 0x00, 0x00, 0x00,
  0x73, 0x65, 0x71, 0x75, 0x65, 0x6e, 0x74, 0x69, 0x61, 0x6c, 0x5f, 0x31,
  0x38, 0x5f, 0x31, 0x2f, 0x64, 0x65, 0x6e, 0x73, 0x65, 0x5f, 0x35, 0x32,
  0x5f, 0x31, 0x2f, 0x42, 0x69, 0x61, 0x73, 0x41, 0x64, 0x64, 0x2f, 0x52,
  0x65, 0x61, 0x64, 0x56, 0x61, 0x72, 0x69, 0x61, 0x62, 0x6c, 0x65, 0x4f,
  0x70, 0x00, 0x00, 0x00, 0x01, 0x00, 0x00, 0x00, 0x20, 0x00, 0x00, 0x00,
  0xde, 0xfe, 0xff, 0xff, 0x00, 0x00, 0x00, 0x01, 0x10, 0x00, 0x00, 0x00,
  0x10, 0x00, 0x00, 0x00, 0x07, 0x00, 0x00, 0x00, 0x1c, 0x00, 0x00, 0x00,
  0x64, 0xfe, 0xff, 0xff, 0x0f, 0x00, 0x00, 0x00, 0x61, 0x72, 0x69, 0x74,
  0x68, 0x2e, 0x63, 0x6f, 0x6e, 0x73, 0x74, 0x61, 0x6e, 0x74, 0x35, 0x00,
  0x01, 0x00, 0x00, 0x00, 0x08, 0x00, 0x00, 0x00, 0x16, 0xff, 0xff, 0xff,
  0x00, 0x00, 0x00, 0x01, 0x10, 0x00, 0x00, 0x00, 0x10, 0x00, 0x00, 0x00,
  0x06, 0x00, 0x00, 0x00, 0x1c, 0x00, 0x00, 0x00, 0x9c, 0xfe, 0xff, 0xff,
  0x0f, 0x00, 0x00, 0x00, 0x61, 0x72, 0x69, 0x74, 0x68, 0x2e, 0x63, 0x6f,
  0x6e, 0x73, 0x74, 0x61, 0x6e, 0x74, 0x34, 0x00, 0x01, 0x00, 0x00, 0x00,
  0x08, 0x00, 0x00, 0x00, 0x4e, 0xff, 0xff, 0xff, 0x00, 0x00, 0x00, 0x01,
  0x10, 0x00, 0x00, 0x00, 0x10, 0x00, 0x00, 0x00, 0x05, 0x00, 0x00, 0x00,
  0x1c, 0x00, 0x00, 0x00, 0xd4, 0xfe, 0xff, 0xff, 0x0f, 0x00, 0x00, 0x00,
  0x61, 0x72, 0x69, 0x74, 0x68, 0x2e, 0x63, 0x6f, 0x6e, 0x73, 0x74, 0x61,
  0x6e, 0x74, 0x33, 0x00, 0x01, 0x00, 0x00, 0x00, 0x01, 0x00, 0x00, 0x00,
  0x86, 0xff, 0xff, 0xff, 0x00, 0x00, 0x00, 0x01, 0x10, 0x00, 0x00, 0x00,
  0x10, 0x00, 0x00, 0x00, 0x04, 0x00, 0x00, 0x00, 0x1c, 0x00, 0x00, 0x00,
  0x0c, 0xff, 0xff, 0xff, 0x0f, 0x00, 0x00, 0x00, 0x61, 0x72, 0x69, 0x74,
  0x68, 0x2e, 0x63, 0x6f, 0x6e, 0x73, 0x74, 0x61, 0x6e, 0x74, 0x32, 0x00,
  0x02, 0x00, 0x00, 0x00, 0x08, 0x00, 0x00, 0x00, 0x20, 0x00, 0x00, 0x00,
  0xc2, 0xff, 0xff, 0xff, 0x00, 0x00, 0x00, 0x01, 0x10, 0x00, 0x00, 0x00,
  0x10, 0x00, 0x00, 0x00, 0x03, 0x00, 0x00, 0x00, 0x1c, 0x00, 0x00, 0x00,
  0x48, 0xff, 0xff, 0xff, 0x0f, 0x00, 0x00, 0x00, 0x61, 0x72, 0x69, 0x74,
  0x68, 0x2e, 0x63, 0x6f, 0x6e, 0x73, 0x74, 0x61, 0x6e, 0x74, 0x31, 0x00,
  0x02, 0x00, 0x00, 0x00, 0x08, 0x00, 0x00, 0x00, 0x08, 0x00, 0x00, 0x00,
  0x00, 0x00, 0x16, 0x00, 0x18, 0x00, 0x14, 0x00, 0x00, 0x00, 0x10, 0x00,
  0x0c, 0x00, 0x08, 0x00, 0x00, 0x00, 0x00, 0x00, 0x00, 0x00, 0x07, 0x00,
  0x16, 0x00, 0x00, 0x00, 0x00, 0x00, 0x00, 0x01, 0x10, 0x00, 0x00, 0x00,
  0x10, 0x00, 0x00, 0x00, 0x02, 0x00, 0x00, 0x00, 0x1c, 0x00, 0x00, 0x00,
  0x9c, 0xff, 0xff, 0xff, 0x0e, 0x00, 0x00, 0x00, 0x61, 0x72, 0x69, 0x74,
  0x68, 0x2e, 0x63, 0x6f, 0x6e, 0x73, 0x74, 0x61, 0x6e, 0x74, 0x00, 0x00,
  0x02, 0x00, 0x00, 0x00, 0x01, 0x00, 0x00, 0x00, 0x08, 0x00, 0x00, 0x00,
  0x00, 0x00, 0x16, 0x00, 0x1c, 0x00, 0x18, 0x00, 0x00, 0x00, 0x14, 0x00,
  0x10, 0x00, 0x0c, 0x00, 0x00, 0x00, 0x00, 0x00, 0x08, 0x00, 0x07, 0x00,
  0x16, 0x00, 0x00, 0x00, 0x00, 0x00, 0x00, 0x01, 0x14, 0x00, 0x00, 0x00,
  0x20, 0x00, 0x00, 0x00, 0x20, 0x00, 0x00, 0x00, 0x01, 0x00, 0x00, 0x00,
  0x40, 0x00, 0x00, 0x00, 0x02, 0x00, 0x00, 0x00, 0xff, 0xff, 0xff, 0xff,
  0x02, 0x00, 0x00, 0x00, 0x04, 0x00, 0x04, 0x00, 0x04, 0x00, 0x00, 0x00,
  0x21, 0x00, 0x00, 0x00, 0x73, 0x65, 0x72, 0x76, 0x69, 0x6e, 0x67, 0x5f,
  0x64, 0x65, 0x66, 0x61, 0x75, 0x6c, 0x74, 0x5f, 0x6b, 0x65, 0x72, 0x61,
  0x73, 0x5f, 0x74, 0x65, 0x6e, 0x73, 0x6f, 0x72, 0x5f, 0x37, 0x30, 0x3a,
  0x30, 0x00, 0x00, 0x00, 0x02, 0x00, 0x00, 0x00, 0x01, 0x00, 0x00, 0x00,
  0x02, 0x00, 0x00, 0x00, 0x01, 0x00, 0x00, 0x00, 0x10, 0x00, 0x00, 0x00,
  0x0c, 0x00, 0x0c, 0x00, 0x0b, 0x00, 0x00, 0x00, 0x00, 0x00, 0x04, 0x00,
  0x0c, 0x00, 0x00, 0x00, 0x09, 0x00, 0x00, 0x00, 0x00, 0x00, 0x00, 0x09
};
unsigned int tinyml_parking_model_tflite_len = 4056;
